<pad>	0
<unk>	0
<s>	0
</s>	0
▁Â	-0
he	-1
▁S	-2
in	-3
ri	-4
▁B	-5
▁T	-6
an	-7
£5	-8
▁t	-9
▁the	-10
Li	-11
ou	-12
▁A	-13
▁Li	-14
▁The	-15
ar	-16
es	-17
tt	-18
7.	-19
ic	-20
on	-21
▁O	-22
2.	-23
3.	-24
er	-25
et	-26
ie	-27
is	-28
£2	-29
▁H	-30
ing	-31
19	-32
ec	-33
fe	-34
nd	-35
of	-36
om	-37
or	-38
£1	-39
£3	-40
▁F	-41
▁I	-42
▁M	-43
▁P	-44
▁R	-45
▁f	-46
and	-47
eri	-48
▁Sc	-49
▁St	-50
▁of	-51
▁Life	-52
#1	-53
.1	-54
1.	-55
18	-56
am	-57
as	-58
at	-59
ed	-60
el	-61
il	-62
ip	-63
ir	-64
la	-65
ld	-66
le	-67
ly	-68
re	-69
ts	-70
ul	-71
£4	-72
▁(	-73
▁C	-74
▁D	-75
▁G	-76
▁N	-77
▁U	-78
▁V	-79
▁W	-80
▁Y	-81
#1)	-82
2.6	-83
ari	-84
can	-85
ear	-86
est	-87
ets	-88
gri	-89
ict	-90
ien	-91
ion	-92
ist	-93
ori	-94
ott	-95
our	-96
ous	-97
pic	-98
▁19	-99
▁Am	-100
▁Be	-101
▁Bo	-102
▁Sh	-103
▁in	-104
grim	-105
ttle	-106
£17.	-107
£51.	-108
£52.	-109
▁#1)	-110
▁Pil	-111
▁and	-112
▁for	-113
£22.6	-114
▁Star	-115
▁Your	-116
erican	-117
▁Little	-118
▁Pilgrim	-119
▁American	-120
.0	-121
.2	-122
.6	-123
0-	-124
1-	-125
15	-126
25	-127
29	-128
33	-129
34	-130
36	-131
46	-132
49	-133
59	-134
74	-135
77	-136
82	-137
88	-138
91	-139
93	-140
99	-141
Jo	-142
Qu	-143
Sc	-144
ad	-145
ak	-146
ap	-147
bj	-148
ce	-149
ck	-150
dh	-151
ef	-152
em	-153
en	-154
eq	-155
ga	-156
gh	-157
gr	-158
gy	-159
im	-160
io	-161
it	-162
lo	-163
nf	-164
oo	-165
ov	-166
ty	-167
um	-168
ur	-169
ys	-170
▁E	-171
.02	-172
.10	-173
.17	-174
.23	-175
.66	-176
00-	-177
81-	-178
Job	-179
Tri	-180
ade	-181
ala	-182
ang	-183
ank	-184
arp	-185
ber	-186
eci	-187
ecr	-188
elv	-189
equ	-190
erl	-191
ers	-192
esa	-193
esp	-194
ett	-195
ght	-196
gin	-197
iem	-198
ind	-199
ine	-200
ipp	-201
ism	-202
iss	-203
lio	-204
lym	-205
nly	-206
old	-207
onn	-208
ory	-209
oum	-210
ree	-211
rom	-212
ull	-213
yas	-214
£20	-215
£35	-216
£45	-217
£50	-218
£54	-219
▁18	-220
▁It	-221
▁Me	-222
▁Pr	-223
▁Qu	-224
▁Tr	-225
▁Up	-226
▁at	-227
▁it	-228
▁on	-229
1849	-230
1991	-231
3.34	-232
3.74	-233
3.88	-234
3.99	-235
7.25	-236
7.59	-237
7.82	-238
aria	-239
ased	-240
bert	-241
bjec	-242
eare	-243
emin	-244
enes	-245
ergr	-246
gain	-247
ginn	-248
iens	-249
irty	-250
lack	-251
logy	-252
ndie	-253
nfam	-254
oman	-255
oodh	-256
oria	-257
ould	-258
ound	-259
ovel	-260
pics	-261
ream	-262
rief	-263
ttic	-264
ular	-265
ving	-266
▁Com	-267
▁Him	-268
▁Hum	-269
▁Job	-270
▁Our	-271
▁Red	-272
▁Rip	-273
▁Sap	-274
▁Set	-275
▁Tri	-276
▁Und	-277
Scott	-278
akesp	-279
anism	-280
earts	-281
elvet	-282
erion	-283
erlin	-284
ience	-285
ories	-286
▁1936	-287
▁Band	-288
▁Best	-289
▁Boat	-290
▁Boys	-291
▁Epic	-292
▁Fict	-293
▁Free	-294
▁Gett	-295
▁Gold	-296
▁Hist	-297
▁Mesa	-298
▁Nine	-299
▁Olio	-300
▁Olym	-301
▁Only	-302
▁Requ	-303
▁Secr	-304
▁Sonn	-305
▁Soum	-306
▁Tipp	-307
▁Vict	-308
▁from	-309
Triang	-310
alayas	-311
ankind	-312
bjects	-313
ecious	-314
ission	-315
£13.99	-316
£17.46	-317
£17.93	-318
£20.66	-319
£22.60	-320
£22.65	-321
£23.88	-322
£33.34	-323
£35.02	-324
£37.59	-325
£45.17	-326
£47.82	-327
£50.10	-328
£51.33	-329
£51.77	-330
£52.15	-331
£52.29	-332
£53.74	-333
£54.23	-334
£57.25	-335
▁1800-	-336
▁1981-	-337
▁Again	-338
▁Attic	-339
▁Based	-340
▁Black	-341
▁Brief	-342
▁Could	-343
▁Dirty	-344
▁Dream	-345
▁Femin	-346
▁Indie	-347
▁Infam	-348
▁Light	-349
▁Maria	-350
▁Novel	-351
▁Quest	-352
▁Scott	-353
▁Sharp	-354
▁Start	-355
▁Their	-356
▁Trade	-357
▁Woman	-358
▁Woodh	-359
bertari	-360
ginners	-361
▁Berlin	-362
▁Coming	-363
▁Hearts	-364
▁Scenes	-365
▁Velvet	-366
erground	-367
▁Fiction	-368
▁Getting	-369
▁History	-370
▁Objects	-371
▁Requiem	-372
▁Sapiens	-373
▁Science	-374
▁Secrets	-375
▁Shakesp	-376
▁Sonnets	-377
▁Stories	-378
▁Tipping	-379
▁Trilogy	-380
▁Feminist	-381
▁Infamous	-382
▁Olympics	-383
▁Precious	-384
▁Starving	-385
▁Victoria	-386
▁Woodhull	-387
Triangular	-388
▁1800-1849	-389
▁1981-1991	-390
▁Americans	-391
▁Beginners	-392
▁Himalayas	-393
▁Humankind	-394
▁Libertari	-395
▁Mesaerion	-396
▁Soumission	-397
▁Shakespeare	-398
▁Underground	-399
▁Libertarianism	-400
-1	-401
.3	-402
.4	-403
.5	-404
.7	-405
.8	-406
.9	-407
0.	-408
00	-409
02	-410
1)	-411
10	-412
13	-413
17	-414
20	-415
22	-416
23	-417
35	-418
37	-419
4.	-420
45	-421
47	-422
5.	-423
50	-424
51	-425
52	-426
53	-427
54	-428
57	-429
60	-430
65	-431
66	-432
80	-433
81	-434
84	-435
98	-436
Ag	-437
Am	-438
At	-439
Ba	-440
Be	-441
Bl	-442
Bo	-443
Br	-444
Co	-445
Di	-446
Dr	-447
Ep	-448
Fe	-449
Fi	-450
Fr	-451
Ge	-452
Go	-453
He	-454
Hi	-455
Hu	-456
In	-457
It	-458
Ma	-459
Me	-460
Ni	-461
No	-462
Ob	-463
Ol	-464
On	-465
Ou	-466
Pi	-467
Pr	-468
Re	-469
Ri	-470
Sa	-471
Se	-472
Sh	-473
So	-474
St	-475
Th	-476
Ti	-477
Tr	-478
Un	-479
Up	-480
Ve	-481
Vi	-482
Wo	-483
Yo	-484
ac	-485
ae	-486
ai	-487
al	-488
ay	-489
be	-490
ca	-491
ci	-492
co	-493
cr	-494
cs	-495
ct	-496
de	-497
di	-498
ea	-499
ee	-500
eg	-501
ei	-502
fa	-503
fo	-504
fr	-505
gi	-506
gu	-507
ha	-508
ht	-509
hu	-510
ia	-511
ib	-512
if	-513
ig	-514
je	-515
ke	-516
ki	-517
lg	-518
li	-519
ll	-520
lv	-521
ma	-522
me	-523
mi	-524
mo	-525
mp	-526
nc	-527
ne	-528
ng	-529
ni	-530
nk	-531
nl	-532
nn	-533
ns	-534
oa	-535
ob	-536
od	-537
og	-538
ol	-539
ot	-540
oy	-541
pe	-542
pi	-543
pp	-544
qu	-545
ra	-546
rg	-547
rl	-548
ro	-549
rp	-550
rs	-551
rt	-552
rv	-553
ry	-554
sa	-555
se	-556
si	-557
sm	-558
sp	-559
ss	-560
st	-561
ta	-562
th	-563
ti	-564
tl	-565
to	-566
ue	-567
ui	-568
un	-569
us	-570
ve	-571
vi	-572
ya	-573
ym	-574
▁#	-575
▁1	-576
▁J	-577
▁L	-578
▁Q	-579
▁a	-580
▁i	-581
▁o	-582
-18	-583
-19	-584
0.1	-585
0.6	-586
1.3	-587
1.7	-588
13.	-589
17.	-590
180	-591
184	-592
193	-593
198	-594
199	-595
2.1	-596
2.2	-597
22.	-598
23.	-599
3.3	-600
3.7	-601
3.8	-602
3.9	-603
33.	-604
37.	-605
4.2	-606
47.	-607
5.0	-608
5.1	-609
7.2	-610
7.4	-611
7.5	-612
7.8	-613
7.9	-614
Bri	-615
Com	-616
Cou	-617
Dir	-618
Dre	-619
Fic	-620
His	-621
Ind	-622
Lib	-623
Lif	-624
Lig	-625
Lit	-626
Mes	-627
Nin	-628
The	-629
Und	-630
Vel	-631
Vic	-632
Wom	-633
You	-634
ain	-635
ani	-636
ans	-637
are	-638
art	-639
arv	-640
ase	-641
cie	-642
der	-643
die	-644
eam	-645
ect	-646
erg	-647
ert	-648
fam	-649
for	-650
gul	-651
har	-652
hei	-653
hul	-654
ics	-655
ilg	-656
ima	-657
ini	-658
inn	-659
iou	-660
irt	-661
jec	-662
kes	-663
kin	-664
lac	-665
lar	-666
lay	-667
lin	-668
man	-669
min	-670
mis	-671
mou	-672
ner	-673
nes	-674
net	-675
oat	-676
odh	-677
ogy	-678
oul	-679
oun	-680
pie	-681
pin	-682
rad	-683
rec	-684
ret	-685
ria	-686
ric	-687
rie	-688
ril	-689
rim	-690
rio	-691
rou	-692
tar	-693
the	-694
tin	-695
tor	-696
tti	-697
ttl	-698
ues	-699
uie	-700
vel	-701
vet	-702
vin	-703
£51	-704
£52	-705
£53	-706
£57	-707
▁#1	-708
▁Ag	-709
▁At	-710
▁Ba	-711
▁Bl	-712
▁Fe	-713
▁Fr	-714
▁Ge	-715
▁Go	-716
▁He	-717
▁Hi	-718
▁Hu	-719
▁In	-720
▁Jo	-721
▁Ma	-722
▁No	-723
▁Ob	-724
▁Ol	-725
▁On	-726
▁Ou	-727
▁Pi	-728
▁Re	-729
▁Ri	-730
▁Sa	-731
▁Se	-732
▁So	-733
▁Ti	-734
▁Wo	-735
▁an	-736
▁fr	-737
0-18	-738
0.10	-739
0.66	-740
1-19	-741
2.60	-742
2.65	-743
4.23	-744
5.02	-745
5.17	-746
Epic	-747
aeri	-748
akes	-749
alay	-750
amou	-751
anis	-752
arts	-753
cans	-754
cott	-755
dhul	-756
ects	-757
eric	-758
grou	-759
icti	-760
icto	-761
ienc	-762
inis	-763
ious	-764
meri	-765
ming	-766
miss	-767
mpic	-768
nder	-769
ners	-770
nets	-771
pear	-772
pien	-773
ping	-774
rade	-775
reci	-776
rets	-777
rian	-778
ries	-779
rilo	-780
rion	-781
sion	-782
tari	-783
ttin	-784
uest	-785
uman	-786
£13.	-787
£22.	-788
£23.	-789
£33.	-790
£37.	-791
£47.	-792
£53.	-793
£57.	-794
▁193	-795
▁198	-796
▁Aga	-797
▁Att	-798
▁Ban	-799
▁Bas	-800
▁Beg	-801
▁Ber	-802
▁Bes	-803
▁Bla	-804
▁Boy	-805
▁Bri	-806
▁Cou	-807
▁Dir	-808
▁Dre	-809
▁Fem	-810
▁Fic	-811
▁Fre	-812
▁His	-813
▁Ind	-814
▁Inf	-815
▁Lib	-816
▁Lif	-817
▁Lig	-818
▁Lit	-819
▁Mes	-820
▁Nin	-821
▁Nov	-822
▁Obj	-823
▁Oly	-824
▁Req	-825
▁Sce	-826
▁Sco	-827
▁Sec	-828
▁Sha	-829
▁Son	-830
▁Sou	-831
▁Sto	-832
▁Tip	-833
▁Vel	-834
▁Vic	-835
▁Wom	-836
▁Woo	-837
▁You	-838
00-18	-839
1800-	-840
81-19	-841
Quest	-842
Trian	-843
amous	-844
angul	-845
ankin	-846
apien	-847
arian	-848
dhull	-849
equie	-850
ilgri	-851
imala	-852
inist	-853
istor	-854
oming	-855
tting	-856
umank	-857
£17.4	-858
£17.9	-859
£51.3	-860
£51.7	-861
£52.1	-862
£52.2	-863
▁Berl	-864
▁Hear	-865
▁Ligh	-866
▁Litt	-867
▁Mari	-868
▁Scen	-869
▁Scie	-870
▁Shak	-871
▁Shar	-872
▁Thei	-873
▁Velv	-874
apiens	-875
ecrets	-876
equiem	-877
ergrou	-878
esaeri	-879
espear	-880
etting	-881
iction	-882
ictori	-883
ilgrim	-884
ipping	-885
istory	-886
lympic	-887
ndergr	-888
onnets	-889
oumiss	-890
rilogy	-891
▁Ameri	-892
▁Begin	-893
▁Liber	-894
▁Objec	-895
▁Preci	-896
▁Scien	-897
▁Starv	-898
▁Stori	-899
00-1849	-900
81-1991	-901
angular	-902
eminist	-903
ericans	-904
espeare	-905
ictoria	-906
lympics	-907
nfamous	-908
oodhull	-909
▁Beginn	-910
▁Himala	-911
▁Humank	-912
▁Libert	-913
arianism	-914
esaerion	-915
▁Soumiss	-916
▁Undergr	-917
akespeare	-918
bertarianism	-919
▁	-920
e	-921
i	-922
t	-923
r	-924
n	-925
o	-926
a	-927
s	-928
.	-929
£	-930
Â	-931
h	-932
l	-933
1	-934
c	-935
m	-936
5	-937
S	-938
2	-939
3	-940
d	-941
u	-942
g	-943
T	-944
f	-945
9	-946
B	-947
7	-948
p	-949
0	-950
4	-951
A	-952
L	-953
y	-954
6	-955
8	-956
:	-957
O	-958
H	-959
'	-960
,	-961
F	-962
I	-963
M	-964
P	-965
R	-966
b	-967
k	-968
v	-969
#	-970
(	-971
)	-972
-	-973
C	-974
D	-975
G	-976
N	-977
U	-978
V	-979
W	-980
Y	-981
E	-982
J	-983
Q	-984
j	-985
q	-986
